TRT-7203-EntropyCalibration2
input_tensor_0: 3f810204
conv1_out_0: 40d02b32
scale_conv1_out_0: 3dfe5805
conv1_relu_out_0: 3dfe17b6
pool1_out_0: 3dfe17b6
res2a_branch2a_out_0: 3dacf872
res2a_branch1_out_0: 3e00476c
res2a_branch2a_relu_out_0: 3dbb6bb4
res2a_branch2b_out_0: 3da57087
res2a_branch2b_relu_out_0: 3d9a959f
res2a_branch2c_out_0: 3d8ce289
res2a_out_0: 3ddabce6
res2a_relu_out_0: 3da631f7
res2b_branch2a_out_0: 3dcb9d4f
res2b_branch2a_relu_out_0: 3da9e0fb
res2b_branch2b_out_0: 3dc8ad7c
res2b_branch2b_relu_out_0: 3dad7c93
res2b_branch2c_out_0: 3d814d36
res2b_out_0: 3dbace6d
res2b_relu_out_0: 3dba3ad9
res2c_branch2a_out_0: 3d9b7b44
res2c_branch2a_relu_out_0: 3d89c504
res2c_branch2b_out_0: 3d9c67bf
res2c_branch2b_relu_out_0: 3d8849e2
res2c_branch2c_out_0: 3d63d790
res2c_out_0: 3da518d0
res2c_relu_out_0: 3d9cf7c7
res3a_branch2a_out_0: 3dcbb28c
res3a_branch1_out_0: 3dd0b4fd
res3a_branch2a_relu_out_0: 3da2e982
res3a_branch2b_out_0: 3db8cfe2
res3a_branch2b_relu_out_0: 3db8566a
res3a_branch2c_out_0: 3dd4394f
res3a_out_0: 3e027066
res3a_relu_out_0: 3e027066
res3b_branch2a_out_0: 3d6dbbf6
res3b_branch2a_relu_out_0: 3d6b4800
res3b_branch2b_out_0: 3d8e34c1
res3b_branch2b_relu_out_0: 3d81b018
res3b_branch2c_out_0: 3da9b7e9
res3b_out_0: 3de3c066
res3b_relu_out_0: 3deda3ef
res3c_branch2a_out_0: 3d854171
res3c_branch2a_relu_out_0: 3d88dd21
res3c_branch2b_out_0: 3dae6ef0
res3c_branch2b_relu_out_0: 3d92d78c
res3c_branch2c_out_0: 3d89981c
res3c_out_0: 3dcc6776
res3c_relu_out_0: 3df4955c
res3d_branch2a_out_0: 3d8f1228
res3d_branch2a_relu_out_0: 3d94b2a2
res3d_branch2b_out_0: 3db283a5
res3d_branch2b_relu_out_0: 3d95be5c
res3d_branch2c_out_0: 3d8afe83
res3d_out_0: 3dd4cd00
res3d_relu_out_0: 3dda7ca2
res4a_branch2a_out_0: 3db035da
res4a_branch1_out_0: 3da8412c
res4a_branch2a_relu_out_0: 3db0ee0f
res4a_branch2b_out_0: 3db0d766
res4a_branch2b_relu_out_0: 3d9c343a
res4a_branch2c_out_0: 3dbe4b90
res4a_out_0: 3e0416aa
res4a_relu_out_0: 3e10392a
res4b_branch2a_out_0: 3d863c7d
res4b_branch2a_relu_out_0: 3da7d296
res4b_branch2b_out_0: 3d9a574a
res4b_branch2b_relu_out_0: 3d68371c
res4b_branch2c_out_0: 3d989951
res4b_out_0: 3dd866a8
res4b_relu_out_0: 3def12ae
res4c_branch2a_out_0: 3d7fce96
res4c_branch2a_relu_out_0: 3d7f4417
res4c_branch2b_out_0: 3d9edd8c
res4c_branch2b_relu_out_0: 3d9889cb
res4c_branch2c_out_0: 3d717134
res4c_out_0: 3dd6fbb3
res4c_relu_out_0: 3ddb8de5
res4d_branch2a_out_0: 3d6ae785
res4d_branch2a_relu_out_0: 3d66f4d7
res4d_branch2b_out_0: 3d789468
res4d_branch2b_relu_out_0: 3d68b7d1
res4d_branch2c_out_0: 3d91e189
res4d_out_0: 3ddd2e33
res4d_relu_out_0: 3ddd2e33
res4e_branch2a_out_0: 3d7e19e0
res4e_branch2a_relu_out_0: 3d758a18
res4e_branch2b_out_0: 3d766675
res4e_branch2b_relu_out_0: 3d5bac0c
res4e_branch2c_out_0: 3da5ebd8
res4e_out_0: 3ddca0e2
res4e_relu_out_0: 3ddca0e2
res4f_branch2a_out_0: 3d817c34
res4f_branch2a_relu_out_0: 3d7232a3
res4f_branch2b_out_0: 3d87c806
res4f_branch2b_relu_out_0: 3d87c806
res4f_branch2c_out_0: 3da56112
res4f_out_0: 3dd86202
res4f_relu_out_0: 3dd86202
res5a_branch1_out_0: 3dfd261e
res5a_branch2a_out_0: 3d968a93
res5a_branch2a_relu_out_0: 3d98e92e
res5a_branch2b_out_0: 3d94cfb4
res5a_branch2b_relu_out_0: 3d896cab
res5a_branch2c_out_0: 3e1b21a8
res5a_out_0: 3e626c07
res5a_relu_out_0: 3e846c2c
res5b_branch2a_out_0: 3d8eb8a1
res5b_branch2a_relu_out_0: 3d6bc0c9
res5b_branch2b_out_0: 3d93fddd
res5b_branch2b_relu_out_0: 3d6c2d77
res5b_branch2c_out_0: 3dcd0013
res5b_out_0: 3e4e0feb
res5b_relu_out_0: 3e6cc222
res5c_branch2a_out_0: 3dad2077
res5c_branch2a_relu_out_0: 3d9fcc3e
res5c_branch2b_out_0: 3db5052a
res5c_branch2b_relu_out_0: 3d94cd3a
res5c_branch2c_out_0: 3e1c828e
res5c_out_0: 3e89964d
res5c_relu_out_0: 3eb45445
squeeze_replaced_out_0: 3eb45445
fc_replaced_out_0: 3e6e352f
topk_layer_output_value: 3e9be76c
topk_layer_output_index: 410576ee
