TRT-7202-EntropyCalibration2
input: 3f810204
321: 3d1cebcc
323: 3d1cebcc
324: 3d1cebcc
325: 3d316ee1
333: 3d0563d7
327: 3ca4b6f9
328: 3cdbcd5d
330: 3cdb630a
331: 3ca38076
335: 3d0cf2a7
336: 3cd94153
337: 3cd50c4d
339: 3cc598fc
340: 3ce151ee
342: 3cdc307d
343: 3c511ebc
345: 3c9cbcf7
346: 3c5802f2
347: 3cb7fd68
349: 3cabb652
350: 3cccc52b
352: 3cce1720
353: 3cd2c3c1
355: 3c9b4448
356: 3c9b4448
357: 3d0bf286
365: 3cc4a628
359: 3d146dd4
360: 3d00fb1a
362: 3d00fb1a
363: 3c840bbd
367: 3d380efa
368: 3d3b6245
369: 3c901470
371: 3c8df7f2
372: 3d1af318
374: 3cd150a4
375: 3d0f0611
377: 3d7a4fb5
378: 3d1f26ee
379: 3cf676b1
381: 3c86a3a2
382: 3ccde320
384: 3d040d97
385: 3c99df97
387: 3d5f35aa
388: 3d5f35aa
389: 3cf33dc9
391: 3cafb789
392: 3cb6e3d6
394: 3cb6ebaa
395: 3c9ed065
397: 3d2a07a3
398: 3d2a07a3
399: 3d2ba5f1
407: 3ca6b325
401: 3d0cd923
402: 3cd6df84
404: 3cc31a95
405: 3cc687ee
409: 3d119d26
410: 3d1a8bb9
411: 3ca9e946
413: 3ca9e946
414: 3cbdd246
416: 3c958a74
417: 3c8d6382
419: 3d094db5
420: 3d094db5
421: 3cbced72
423: 3cbd2d61
424: 3d28019d
426: 3d34aec8
427: 3c9536bd
429: 3cf35301
430: 3cf35301
431: 3cceab8a
433: 3ccf68bf
434: 3cda4b05
436: 3ccd3444
437: 3cba82d5
439: 3d1c13e6
440: 3d242051
441: 3cc9b123
443: 3cbbfaab
444: 3cceb16c
446: 3cb8d61a
447: 3c93bb04
449: 3d19127c
450: 3d209a0c
451: 3cef6ed2
453: 3ced2cf4
454: 3cc8c178
456: 3cc85bf3
457: 3cabbf01
459: 3d27655b
460: 3d486750
461: 3cff2306
469: 3c7b220f
463: 3d0408a7
464: 3cdb53ad
466: 3cdb5664
467: 3ca2bb99
471: 3cdfb2ce
472: 3cae8b7f
473: 3cfe1405
475: 3cfda66d
476: 3cf41d50
478: 3cc388fe
479: 3cb80689
481: 3cc9cb70
482: 3cac8b68
483: 3d19fe83
485: 3d11b80f
486: 3d167632
488: 3ccb2a30
489: 3dba4fc8
491: 3dba4fc8
492: 3dc733bb
493: 3cfe6588
494: 3cfe6588
(Unnamed Layer* 131) [Shuffle]_output: 3cfe6588
(Unnamed Layer* 132) [Fully Connected]_output: 3e45d349
output: 3e45d349
topk_layer_output_value: 3eba2f0a
topk_layer_output_index: 40fffe2c
