TRT-7203-EntropyCalibration2
numerical_input: 3de57e98
index_input: 4897230f
bot_l.0.output: 3dd4a107
bot_l.0.relu.output: 3d6283d5
bot_l.2.output: 3d57487d
bot_l.2.relu.output: 3d11e0e7
bot_l.4.output: 3d4eaf80
bot_l.4.relu.output: 3cc4e318
interaction_output_concat_output: 3c5b5c20
interleave_pre_top_mlp: 3c5b5c20
top_l.0.output: 3cf0ad1e
top_l.0.relu.output: 3c82c314
top_l.2.output: 3cad3415
top_l.2.relu.output: 3c58a8b0
top_l.4.output: 3cd0312d
top_l.4.relu.output: 3c7e32be
top_l.6.output: 3c8b5095
top_l.6.relu.output: 3ca4067f
top_l.8.output: 3d9f673a
interleave_post_top_mlp: 3d9f673a
sigmoid_output: 3b10dab8
