TRT-7203-EntropyCalibration2
input: 3caa54fc
(Unnamed Layer* 0) [Convolution]_output: 3dcaa048
(Unnamed Layer* 1) [Scale]_output: 3c6a0e7d
(Unnamed Layer* 2) [Activation]_output: 3c85d4e9
(Unnamed Layer* 3) [Pooling]_output: 3c85d4e9
(Unnamed Layer* 4) [Convolution]_output: 3d234dde
(Unnamed Layer* 5) [Scale]_output: 3c952d4b
(Unnamed Layer* 6) [Activation]_output: 3c210b8a
(Unnamed Layer* 7) [Convolution]_output: 3c4dd721
(Unnamed Layer* 8) [Scale]_output: 3c8505a8
(Unnamed Layer* 9) [ElementWise]_output: 3cb280ff
(Unnamed Layer* 10) [Activation]_output: 3ca2cc61
(Unnamed Layer* 11) [Convolution]_output: 3d0ffe74
(Unnamed Layer* 12) [Scale]_output: 3c80a8d5
(Unnamed Layer* 13) [Activation]_output: 3c25cb18
(Unnamed Layer* 14) [Convolution]_output: 3b96d90f
(Unnamed Layer* 15) [Scale]_output: 3c7a6b7d
(Unnamed Layer* 16) [ElementWise]_output: 3cc32e29
(Unnamed Layer* 17) [Activation]_output: 3ccb37cb
(Unnamed Layer* 18) [Convolution]_output: 3ce13381
(Unnamed Layer* 19) [Scale]_output: 3c5a14cb
(Unnamed Layer* 20) [Activation]_output: 3c27ec2c
(Unnamed Layer* 21) [Convolution]_output: 3b9d20e8
(Unnamed Layer* 22) [Scale]_output: 3c784112
(Unnamed Layer* 23) [ElementWise]_output: 3ce914d3
(Unnamed Layer* 24) [Activation]_output: 3ce914d3
(Unnamed Layer* 25) [Convolution]_output: 3cf8c089
(Unnamed Layer* 26) [Scale]_output: 3c5a2ad8
(Unnamed Layer* 27) [Activation]_output: 3c394f8a
(Unnamed Layer* 28) [Convolution]_output: 3bf79e55
(Unnamed Layer* 29) [Scale]_output: 3c83e7f8
(Unnamed Layer* 30) [Convolution]_output: 3c0d37f1
(Unnamed Layer* 31) [Scale]_output: 3bd3ddb4
(Unnamed Layer* 32) [ElementWise]_output: 3c96cd74
(Unnamed Layer* 33) [Activation]_output: 3ca057a6
(Unnamed Layer* 34) [Convolution]_output: 3c7dd5ae
(Unnamed Layer* 35) [Scale]_output: 3c500f1a
(Unnamed Layer* 36) [Activation]_output: 3c3251e7
(Unnamed Layer* 37) [Convolution]_output: 3c0c43bb
(Unnamed Layer* 38) [Scale]_output: 3c82ff1a
(Unnamed Layer* 39) [ElementWise]_output: 3c9e46da
(Unnamed Layer* 40) [Activation]_output: 3caf8373
(Unnamed Layer* 41) [Convolution]_output: 3c739fb2
(Unnamed Layer* 42) [Scale]_output: 3c56c0e4
(Unnamed Layer* 43) [Activation]_output: 3c445a72
(Unnamed Layer* 44) [Convolution]_output: 3bb87d00
(Unnamed Layer* 45) [Scale]_output: 3c53ce6d
(Unnamed Layer* 46) [ElementWise]_output: 3ca5dccf
(Unnamed Layer* 47) [Activation]_output: 3cbad990
(Unnamed Layer* 48) [Convolution]_output: 3c895283
(Unnamed Layer* 49) [Scale]_output: 3c614cea
(Unnamed Layer* 50) [Activation]_output: 3c3427b9
(Unnamed Layer* 51) [Convolution]_output: 3b870211
(Unnamed Layer* 52) [Scale]_output: 3c5fe1ab
(Unnamed Layer* 53) [ElementWise]_output: 3cb45715
(Unnamed Layer* 54) [Activation]_output: 3cc3471b
(Unnamed Layer* 55) [Convolution]_output: 3cbd2b28
(Unnamed Layer* 56) [Scale]_output: 3c55f1ea
(Unnamed Layer* 57) [Activation]_output: 3c514149
(Unnamed Layer* 58) [Convolution]_output: 3bfc1a8a
(Unnamed Layer* 59) [Scale]_output: 3c5b7259
(Unnamed Layer* 60) [Convolution]_output: 3bc0ea72
(Unnamed Layer* 61) [Scale]_output: 3c11cd88
(Unnamed Layer* 62) [ElementWise]_output: 3c754490
(Unnamed Layer* 63) [Activation]_output: 3c5fb7c7
(Unnamed Layer* 64) [Convolution]_output: 3c458ecd
(Unnamed Layer* 65) [Scale]_output: 3c9a0926
(Unnamed Layer* 66) [Activation]_output: 3c9d0f62
(Unnamed Layer* 67) [Convolution]_output: 3c2ae5b6
(Unnamed Layer* 68) [Scale]_output: 3c845e06
(Unnamed Layer* 69) [ElementWise]_output: 3c833a02
(Unnamed Layer* 70) [Activation]_output: 3c8c1bdb
(Unnamed Layer* 71) [Convolution]_output: 3c65f29a
(Unnamed Layer* 72) [Scale]_output: 3c82e98c
(Unnamed Layer* 73) [Activation]_output: 3c7aa26a
(Unnamed Layer* 74) [Convolution]_output: 3c103298
(Unnamed Layer* 75) [Scale]_output: 3c823caf
(Unnamed Layer* 76) [ElementWise]_output: 3c8cf664
(Unnamed Layer* 77) [Activation]_output: 3caac031
(Unnamed Layer* 78) [Convolution]_output: 3cbc0f77
(Unnamed Layer* 79) [Scale]_output: 3cf39a5e
(Unnamed Layer* 80) [Activation]_output: 3c55ade7
(Unnamed Layer* 81) [Convolution]_output: 3bfcb42f
(Unnamed Layer* 82) [Scale]_output: 3c8d7319
(Unnamed Layer* 83) [ElementWise]_output: 3ca54c1b
(Unnamed Layer* 84) [Activation]_output: 3cae76a7
(Unnamed Layer* 85) [Convolution]_output: 3cb2c759
(Unnamed Layer* 86) [Scale]_output: 3c6af5aa
(Unnamed Layer* 87) [Activation]_output: 3c3da415
(Unnamed Layer* 88) [Convolution]_output: 3ba8ca68
(Unnamed Layer* 89) [Scale]_output: 3caae78d
(Unnamed Layer* 90) [ElementWise]_output: 3d125df9
(Unnamed Layer* 91) [Activation]_output: 3d1d9911
(Unnamed Layer* 92) [Convolution]_output: 3d65ef03
(Unnamed Layer* 93) [Scale]_output: 3c3cb300
(Unnamed Layer* 94) [Activation]_output: 3c2cc085
(Unnamed Layer* 95) [Convolution]_output: 3c0b2ce8
(Unnamed Layer* 96) [Scale]_output: 3cee566b
(Unnamed Layer* 97) [ElementWise]_output: 3d6b97d9
(Unnamed Layer* 98) [Activation]_output: 3d7ac482
(Unnamed Layer* 99) [Convolution]_output: 3d14419d
(Unnamed Layer* 100) [Activation]_output: 3d1aae01
(Unnamed Layer* 101) [Convolution]_output: 3d3f7ecb
(Unnamed Layer* 102) [Activation]_output: 3d3f7ecb
(Unnamed Layer* 103) [Convolution]_output: 3d14ef3a
(Unnamed Layer* 104) [Activation]_output: 3d1a8dfe
(Unnamed Layer* 105) [Convolution]_output: 3d4a570b
(Unnamed Layer* 106) [Activation]_output: 3d4fa965
(Unnamed Layer* 107) [Convolution]_output: 3d66b28a
(Unnamed Layer* 108) [Activation]_output: 3d70e189
(Unnamed Layer* 109) [Convolution]_output: 3d92ec38
(Unnamed Layer* 110) [Activation]_output: 3d97d3cf
(Unnamed Layer* 111) [Convolution]_output: 3d6afbf9
(Unnamed Layer* 112) [Activation]_output: 3d725fdb
(Unnamed Layer* 113) [Convolution]_output: 3d82f948
(Unnamed Layer* 114) [Activation]_output: 3da88a96
(Unnamed Layer* 115) [Convolution]_output: 3d85c9dc
(Unnamed Layer* 116) [Activation]_output: 3d9231c9
(Unnamed Layer* 117) [Convolution]_output: 3d42d809
(Unnamed Layer* 118) [Activation]_output: 3d899a7c
(Unnamed Layer* 131) [Convolution]_output: 3dcd8c88
(Unnamed Layer* 132) [Convolution]_output: 3de33e7e
(Unnamed Layer* 133) [Convolution]_output: 3df4c345
(Unnamed Layer* 134) [Convolution]_output: 3debbf5b
(Unnamed Layer* 135) [Convolution]_output: 3e038b1d
(Unnamed Layer* 136) [Convolution]_output: 3e088a3a
(Unnamed Layer* 137) [Constant]_output: 3a4fd878
NMS_0: 3f750143
