TRT-7200-MinMaxCalibration
input: 3e07e698
length: 407870e2
one_constant: 3c010204
two_constant: 3c810204
encoder.pre_rnn.lstm0_output: 3c00f873
encoder.pre_rnn.lstm0_hidden: 3bfdd524
encoder.pre_rnn.lstm0_cell: 3fd057e9
length_add_one: 4078f1e4
encoder.pre_rnn.lstm1_output: 3c00ecfd
encoder.pre_rnn.lstm1_hidden: 3c00dd1c
encoder.pre_rnn.lstm1_cell: 40077991
length_half: 3ff8f1e4
encoder_reshape: 3c00ecfd
encoder.post_rnn.lstm0_output: 3c0101e7
encoder.post_rnn.lstm0_hidden: 3bdc166f
encoder.post_rnn.lstm0_cell: 3f93a046
encoder.post_rnn.lstm1_output: 3c0101a7
encoder.post_rnn.lstm1_hidden: 3bfb5290
encoder.post_rnn.lstm1_cell: 3fad2ec6
encoder.post_rnn.lstm2_output: 3c00ffb2
encoder.post_rnn.lstm2_hidden: 3bf263ec
encoder.post_rnn.lstm2_cell: 3fe1b7d0
