TRT-7200-EntropyCalibration2
input_tensor_0: 3f810204
resnet_model/conv2d/Conv2D_0: 40d02b32
resnet_model/batch_normalization/FusedBatchNorm_0: 3dfe5805
resnet_model/Relu_0: 3dfe17b6
resnet_model/max_pooling2d/MaxPool_0: 3dfe17b6
Conv__128_0: 3dacf872
Conv__123_0: 3e00476c
resnet_model/Relu_1_0: 3dbb6bb4
Conv__129_0: 3da57087
resnet_model/Relu_2_0: 3d9a959f
Conv__130_0: 3d8ce289
resnet_model/add_0: 3ddabce6
resnet_model/Relu_3_0: 3da631f7
Conv__131_0: 3dcb9d4f
resnet_model/Relu_4_0: 3da9e0fb
Conv__132_0: 3dc8ad7c
resnet_model/Relu_5_0: 3dad7c93
Conv__133_0: 3d814d36
resnet_model/add_1_0: 3dbace6d
resnet_model/Relu_6_0: 3dba3ad9
Conv__138_0: 3d9b7b44
resnet_model/Relu_7_0: 3d89c504
Conv__139_0: 3d9c67bf
resnet_model/Relu_8_0: 3d8849e2
Conv__140_0: 3d63d790
resnet_model/add_2_0: 3da518d0
resnet_model/Relu_9_0: 3d9cf7c7
Conv__145_0: 3dcbb28c
Conv__152_0: 3dd0b4fd
resnet_model/Relu_10_0: 3da2e982
Conv__146_0: 3db8cfe2
resnet_model/Relu_11_0: 3db8566a
Conv__147_0: 3dd4394f
resnet_model/add_3_0: 3e027066
resnet_model/Relu_12_0: 3e027066
Conv__153_0: 3d6dbbf6
resnet_model/Relu_13_0: 3d6b4800
Conv__154_0: 3d8e34c1
resnet_model/Relu_14_0: 3d81b018
Conv__155_0: 3da9b7e9
resnet_model/add_4_0: 3de3c066
resnet_model/Relu_15_0: 3deda3ef
Conv__160_0: 3d854171
resnet_model/Relu_16_0: 3d88dd21
Conv__161_0: 3dae6ef0
resnet_model/Relu_17_0: 3d92d78c
Conv__162_0: 3d89981c
resnet_model/add_5_0: 3dcc6776
resnet_model/Relu_18_0: 3df4955c
Conv__167_0: 3d8f1228
resnet_model/Relu_19_0: 3d94b2a2
Conv__168_0: 3db283a5
resnet_model/Relu_20_0: 3d95be5c
Conv__169_0: 3d8afe83
resnet_model/add_6_0: 3dd4cd00
resnet_model/Relu_21_0: 3dda7ca2
Conv__174_0: 3db035da
Conv__181_0: 3da8412c
resnet_model/Relu_22_0: 3db0ee0f
Conv__175_0: 3db0d766
resnet_model/Relu_23_0: 3d9c343a
Conv__176_0: 3dbe4b90
resnet_model/add_7_0: 3e0416aa
resnet_model/Relu_24_0: 3e10392a
Conv__182_0: 3d863c7d
resnet_model/Relu_25_0: 3da7d296
Conv__183_0: 3d9a574a
resnet_model/Relu_26_0: 3d68371c
Conv__184_0: 3d989951
resnet_model/add_8_0: 3dd866a8
resnet_model/Relu_27_0: 3def12ae
Conv__189_0: 3d7fce96
resnet_model/Relu_28_0: 3d7f4417
Conv__190_0: 3d9edd8c
resnet_model/Relu_29_0: 3d9889cb
Conv__191_0: 3d717134
resnet_model/add_9_0: 3dd6fbb3
resnet_model/Relu_30_0: 3ddb8de5
Conv__196_0: 3d6ae785
resnet_model/Relu_31_0: 3d66f4d7
Conv__197_0: 3d789468
resnet_model/Relu_32_0: 3d68b7d1
Conv__198_0: 3d91e189
resnet_model/add_10_0: 3ddd2e33
resnet_model/Relu_33_0: 3ddd2e33
Conv__203_0: 3d7e19e0
resnet_model/Relu_34_0: 3d758a18
Conv__204_0: 3d766675
resnet_model/Relu_35_0: 3d5bac0c
Conv__205_0: 3da5ebd8
resnet_model/add_11_0: 3ddca0e2
resnet_model/Relu_36_0: 3ddca0e2
Conv__210_0: 3d817c34
resnet_model/Relu_37_0: 3d7232a3
Conv__211_0: 3d87c806
resnet_model/Relu_38_0: 3d87c806
Conv__212_0: 3da56112
resnet_model/add_12_0: 3dd86202
resnet_model/Relu_39_0: 3dd86202
Conv__217_0: 3dfd261e
Conv__222_0: 3d968a93
resnet_model/Relu_40_0: 3d98e92e
Conv__223_0: 3d94cfb4
resnet_model/Relu_41_0: 3d896cab
Conv__224_0: 3e1b21a8
resnet_model/add_13_0: 3e626c07
resnet_model/Relu_42_0: 3e846c2c
Conv__225_0: 3d8eb8a1
resnet_model/Relu_43_0: 3d6bc0c9
Conv__226_0: 3d93fddd
resnet_model/Relu_44_0: 3d6c2d77
Conv__227_0: 3dcd0013
resnet_model/add_14_0: 3e4e0feb
resnet_model/Relu_45_0: 3e6cc222
Conv__232_0: 3dad2077
resnet_model/Relu_46_0: 3d9fcc3e
Conv__233_0: 3db5052a
resnet_model/Relu_47_0: 3d94cd3a
Conv__234_0: 3e1c828e
resnet_model/add_15_0: 3e89964d
resnet_model/Relu_48_0: 3eb45445
squeeze_replaced_output: 3eb45445
fc_replaced_output: 3e6e352f
topk_layer_output_value: 3e9be76c
topk_layer_output_index: 410576ee
